#ifndef TOPODRONE_CONSTANTS_H
#define TOPODRONE_CONSTANTS_H
const float interval_values[]={1.5f, 2.f, 2.5f, 3.f, 3.5f, 4.0f, 4.5f, 5.0f};

const int pmdec[]={0,1,2,3,12};

const int shutter_dec[]={
        0x012C000A, 0x00FA000A, 0x00C8000A, 0x0096000A,
        0x0082000A, 0x0064000A, 0x0050000A, 0x003C000A,
        0x0032000A, 0x0028000A, 0x0020000A, 0x0019000A,
        0x0014000A, 0x0010000A, 0x000D000A, 0x000A000A,
        0x0008000A, 0x0006000A, 0x0005000A, 0x0004000A,
        0x00010003, 0x00010004, 0x00010005, 0x00010006,
        0x00010008, 0x0001000A, 0x0001000D, 0x0001000F,
        0x00010014, 0x00010019, 0x0001001E, 0x00010028,
        0x00010032, 0x0001003C, 0x00010050, 0x00010064,
        0x0001007D, 0x000100A0, 0x000100C8, 0x000100FA,
        0x00010140, 0x00010190, 0x000101F4, 0x00010280,
        0x00010320, 0x000103E8, 0x000104E2, 0x00010640,
        0x000107D0, 0x000109C4, 0x00010C80, 0x00010FA0 };



const int iso_dec[]={0x00FFFFFF, 0x00000064, 0x0000007D, 0x000000A0, 0x000000C8, 0x000000FA, 0x00000140,
                     0x00000190, 0x000001F4, 0x00000280, 0x00000320,0x000003E8,0x000004E2,0x00000640,
                     0x000007D0,0x000009C4,0x00000C80,0x00000FA0,0x00001388,0x00001900,0x00001F40,
                     0x00002710,0x00003200,0x00003E80,0x00004E20,0x00006400,0x00007D00,0x00009C40,
                     0x0000C800,0x01FFFFFF,0x01000064,0x010000C8,0x01000190,0x01000320,0x01000640,
                     0x01000C80,0x01001900,0x01003200,0x01006400,0x0100C800,0x02FFFFFF,0x02000064,
                     0x020000C8,0x02000190,0x02000320,0x02000640,0x02000C80,0x02001900,0x02003200,
                     0x02006400,0x0200C800 };

const int focus_dec[]={ 0x0001, 0x0002, 0x0004, 0x8005, 0x8006};

const int number_dec[]={ 0x0118,0x0140, 0x015E, 0x0190, 0x01C2, 0x01F4, 0x0230, 0x0276,
                         0x02C6, 0x0320, 0x0384, 0x03E8, 0x044C, 0x0514, 0x0578, 0x0640, 0x0708,
                         0x07D0, 0x0898 };

const int wb_dec[]={0x0002, 0x0004, 0x0006, 0x0007, 0x8001, 0x8002, 0x8003, 0x8004,
                    0x8010, 0x8011, 0x8012, 0x8020, 0x8021, 0x8022, 0x8030};

const int bias_dec[]={ 0xEC78, 0xEDA4,  0xEF34, 0xF060, 0xF18C,
                       0xF31C, 0xF448, 0xF574, 0xF704, 0xF830, 0xF95C,
                       0xFAEC, 0xFC18, 0xFD44, 0xFED4, 0x0000,
                       0x012C,  0x02BC, 0x03E8, 0x0514, 0x06A4,
                       0x07D0, 0x08FC, 0x0A8C, 0x0BB8, 0x0CE4,
                       0x0E74, 0x0FA0, 0x10CC,  0x125C, 0x1388};


#endif //TOPODRONE_CONSTANTS_H
